#include <cstddef>
namespace paper {
	unsigned char paper_bootstrap_weights[] = {0x00,0x00,0x00,0x00,0x00,0x00,0x00,0x00,0x00,0x00,0x00,0x00,0x00,0x50,0x92,0xe1,0xd9,0x5f,0xee,0xeb,0x8b,0x08,0xda,0x59,0x88,0x21,0xa7,0x21,0x99,0x14,0x1e,0xd7,0x5d,0x58,0x60,0xbc,0xcb,0x0c,0xa4,0xe0,0x41,0xe1,0x38,0x72,0x07,0xf9,0xc9,0x93,0x10,0x6d,0x4f,0xcc,0xd3,0xcc,0x7f,0x49,0x87,0x97,0x60,0xe9,0xa9,0x1f,0xff,0x92,0x23,0x99,0xa0,0x83,0xc6,0x00,0xaa,0x05,0x72,0xf5,0xe3,0x62,0x47,0xd9,0x78,0xfc,0xfc,0x84,0x04,0x05,0xf8,0xd4,0xb6,0xd3,0x31,0x61,0xc0,0x06,0x6a,0x55,0xf4,0x31,0x0f,0xd4,0x5b,0x48,0x57,0xff,0x4b,0x7f,0x07,0x7d,0x36,0x1a,0xcb,0xec,0xd4,0xa6,0xa3,0x0e,0x0a,0x32,0xed,0x41,0xc8,0x60,0x7a,0xa9,0x21,0x28,0x43,0x39,0x2e,0x85,0x3f,0xcb,0xcb,0x4e,0x7c,0xb1,0x94,0xe3,0x5c,0x94,0xf0,0x7f,0x91,0xde,0x59,0xef,0x09,0x25,0x51,0xa9,0x35,0x87,0x4e,0x0c,0x70,0x44,0xd6,0x24,0xa5,0x35,0x1a,0x9e,0x67,0x55,0x6d,0x31,0xdd,0xfc,0x2a,0x44,0x0b,0xf6,0x14,0x75,0x01,0x44,0x9b,0x4c,0xb9,0x57,0x22,0x78,0xd0,0x34,0xee,0x68,0x6a,0x6b,0xee,0x29,0x85,0x16,0x81,0xdf,0x07,0xb6,0x19,0xd5,0x36,0xb3,0xcf,0xdb,0x87,0x81,0x1d,0x55,0x07,0x6b,0x15,0x54,0xbd,0x62,0x67,0xd6,0xec,0xd8,0x03,0x83,0x27,0xd2,0xbc,0xc0,0x85,0x0b,0xdf,0x8f,0x56,0xec,0x04,0x14,0x91,0x22,0x07,0xe8,0x1b,0xcf,0x90,0xdf,0xac,0x8a,0x4a,0xaa,0x07,0xa2,0xbc,0x14,0x44,0xa2,0xe8,0x5a,0xe0,0x47,0x83,0x69,0xe6,0x33,0x5e,0x08,0x52,0x08,0x4c,0xba,0x17,0x27,0xb0,0xd0,0xe2,0x3f,0x7a,0xea,0xb2,0x32,0x50,0x2e,0x4d,0x6b,0x9c,0x9c,0x13,0xf6,0x58,0x5e,0xcd,0xc0,0xd8,0xb5,0x6a,0xa9,0x8f,0xb7,0x05,0xe5,0xcb,0x9a,0x6f,0x0b,0xae,0x68,0x53,0x91,0x07,0x3e,0x8c,0x4f,0x6c,0x00,0x9f,0xd3,0xe7,0x08,0x0d,0x4b,0x35,0x5a,0xe2,0xf0,0x30,0x41,0x9d,0xb1,0xc1,0xe0,0xdb,0xd8,0x02,0x03,0x43,0x47,0xf8,0x50,0xe9,0x95,0x84,0x69,0xc9,0x27,0x0a,0x8b,0x05,0x31,0xc6,0xf9,0x30,0x26,0xf6,0xc5,0x90,0x21,0x2b,0x76,0xac,0xff,0xff,0xfd,0x00,0x00,0x00,0x00,0x00,0x00,0x00,0x00,0x00,0x00,0x00,0x00,0x00,0x00,0x00,0x00,0x00,0x00,0x00,0x00,0x00,0x00,0x00,0x00,0x00,0x00,0x00,0x00,0x00,0x00,0x00,0x05,0x04,0xdd,0xf6,0x7f,0x73,0x76,0x7e,0xae,0xc9,0x94,0x4b,0xd5,0xd0,0x40,0x00,0x00,0x5c,0x2f,0xbb,0x14,0x8e,0x00,0x6a,0x8e,0x8b,0xa7,0xa7,0x5d,0xd8,0x6c,0x9f,0xe0,0x0c,0x83,0xf5,0xff,0xdb,0xfd,0x76,0xea,0xa0,0x95,0x31,0x07,0x14,0x36,0xb6,0xaf,0x04,0x83,0x0a,0x59,0x77,0x78,0x69,0x28,0x36,0x9e,0xf4,0xda,0xc5,0xe6,0xad,0xf1,0x22,0x98,0xfa,0xb7,0xc6,0x10,0x58,0xe7,0x7e,0xa5,0x54,0xcb,0x93,0xed,0xee,0xda,0x06,0x92,0xcb,0xfc,0xc5,0x40,0xab,0x21,0x3b,0x28,0x36,0xb2,0x90,0x29,0xe2,0x3a,0x04,0x37,0x60,0x72,0x40,0xf7,0xde,0x43,0x6e,0x94,0xe2,0xbf,0xc9,0x55,0x98,0xe3,0xae,0x7a,0xc6,0x39,0x90,0xda,0xaa,0xf2,0xa6,0x9b,0xf1,0x1c,0x91,0x3b,0x92,0x88,0x44,0xbf,0x50,0x12,0x35,0x54,0x56,0xf2,0xf1,0x64,0x16,0x64,0x64,0x02,0x4b,0x29,0x03,0x94,0x58,0x1b,0x54,0x09,0x30,0x07,0x3b,0xe7,0x70,0xd5,0x35,0x5e,0x4c,0x9f,0x3f,0xe8,0x0b,0x4b,0xc8,0x42,0xe8,0x2c,0x1c,0x18,0xab,0xfe,0xec,0x47,0xea,0x98,0x9e,0x63,0x95,0x3b,0xc8,0x2a,0xc4,0x11,0xf3,0x04,0xd1,0x38,0x33,0xd5,0x2a,0x56,0x03,0x1e,0x91,0xdb,0x4b,0x8d,0x1f,0x83,0xe3,0xb8,0xcf,0x30,0x86,0xa2,0x4d,0x41,0x12,0x43,0xb4,0x27,0x5d,0x7c,0xff,0x63,0xe3,0x22,0x9c,0x7c,0x40,0xae,0xae,0x8c,0x53,0xd6,0xf3,0x23,0x3d,0x43,0x9a,0xf3,0x17,0x78,0x65,0x75,0x1e,0x98,0x85,0xf1,0x00,0xcd,0x8b,0x27,0xbc,0x68,0x1d,0xd0,0xf0,0xa6,0x73,0x9e,0x02,0xc7,0xfa,0x55,0x9c,0xa5,0x25,0xfe,0x7e,0x53,0x41,0x5f,0x3d,0xb8,0x78,0x4c,0xc5,0xcc,0xd0,0x3a,0xfb,0x8f,0xa5,0xf7,0x39,0x9b,0x3d,0x04,0x47,0x4d,0xe8,0xa3,0xbb,0x87,0x80,0x68,0x00,0xc3,0x0a,0x6e,0x38,0x54,0x9a,0xc5,0xd7,0x5f,0x04,0x10,0x14,0x35,0x60,0x00,0x13,0x60,0xde,0xdb,0xea,0xc1,0xc6,0x29,0x4b,0xe2,0x60,0xd0,0xbc,0x75,0x8e,0x1b,0x2e,0x34,0xd1,0x7c,0x4c,0x24,0xff,0xd5,0x33,0x8e,0x33,0x4a,0xcf,0x03,0xa2,0x23,0x00,0xba,0xc5,0x71,0x3c,0x68,0x76,0xbb,0x5e,0xf6,0xeb,0xe9,0x39,0x41,0x7b,0x7e,0x9b,0xf6,0x9e,0x62,0xc3,0x2d,0x84,0xd3,0xa4,0x8a,0x1b,0xcd,0x0e,0x8c,0x46,0x04,0x02,0x10,0xaf,0x2f,0xd3,0xbe,0x43,0xc9,0xfb,0xea,0xea,0x93,0x3a,0x0a,0x31,0x47,0x00,0xba,0x4b,0xcb,0xe4,0x13,0xbf,0xd8,0x34,0xf7,0xa3,0x10,0xf4,0x00,0x00,0x00,0x8e,0x9b,0x2b,0xfd,0x46,0xfd,0x8a,0x8e,0x91,0xbc,0xca,0x44,0xf2,0x4d,0x67,0x35,0x90,0x6e,0x55,0x7f,0x89,0xf3,0x76,0x91,0x48,0x00,0x79,0x33,0x21,0x55,0x3b,0x3f,0x00,0xac,0x70,0xb2,0xb0,0x69,0x1c,0x6a,0x07,0x39,0x42,0xb2,0x78,0x00,0x00,0x00,0xb0,0x52,0xbf,0xb4,0xe3,0x0e,0xf8,0x7f,0xc0,0x72,0xea,0xc7,0x0e,0xbe,0x6e,0x19,0xc3,0xec,0xd9,0x45,0x64,0xd4,0xb9,0x19,0xeb,0xc4,0x3e,0xbe,0x56,0xde,0xcd,0xc4,0x00,0xa5,0xa1,0x50,0x15,0xad,0xdd,0x4a,0x01,0x94,0x7b,0xf3,0xec,0x40,0x00,0x00,0x39,0x1e,0xcb,0x3a,0x6f,0x7a,0x6b,0x1b,0x1a,0x63,0x3e,0x37,0xee,0x8d,0xd4,0xc7,0x44,0x0d,0xfe,0x20,0xab,0x71,0xc6,0x3f,0xe1,0x2d,0xa7,0xea,0x49,0xf7,0xb4,0x20,0x00,0x92,0x6d,0xf2,0x31,0x4b,0xb4,0xca,0xaa,0x2c,0xd9,0x2b,0xa0,0x80,0x00,0x00,0xe8,0x92,0x08,0xdd,0x03,0x8f,0xbb,0x26,0x99,0x87,0x68,0x96,0x21,0xd5,0x22,0x92,0xae,0x9c,0x35,0x94,0x1a,0x74,0x84,0x75,0x6e,0xcc,0xed,0x92,0xa6,0x50,0x93,0xba,0x00,0x81,0x09,0xf8,0x55,0x60,0x47,0x87,0x39,0x0d,0x84,0xb6,0xf8,0x77,0xff,0xac,0xee,0x0e,0xa7,0x13,0x07,0x37,0xe2,0x3e,0x2e,0xde,0x6f,0xf0,0x37,0x4e,0x0d,0x93,0x62,0xb4,0xc9,0x13,0x5a,0x10,0x26,0x52,0x6c,0x57,0x1d,0x67,0x7b,0xf5,0x88,0x63,0x00,0x53,0xa5,0xcc,0x40,0x86,0xe4,0x1a,0x33,0x9d,0x7a,0x77,0xb8,0x80,0x00,0x00,0x89,0xf1,0x21,0x43,0xde,0xaa,0x4f,0x04,0xe7,0xa7,0xb6,0x78,0xb7,0x18,0xbc,0x9f,0x89,0xe9,0x00,0x52,0xee,0x0c,0x0f,0xe0,0x40,0x5e,0x14,0x87,0x75,0x4c,0x53,0x24,0x00,0x4e,0x8f,0x80,0x7b,0x92,0xd3,0xc4,0xf5,0x7f,0x15,0x97,0x4c,0x00,0x00,0x00,0x6a,0x0e,0x06,0x21,0x52,0xc3,0x32,0x64,0x6e,0xef,0x11,0x16,0x28,0xf1,0x09,0xa0,0x23,0x69,0xe6,0xce,0xc5,0x1f,0x5d,0xef,0x7d,0xe9,0xf3,0xf6,0xc4,0x60,0x00,0xd1,0x00,0x48,0x11,0xa6,0xbf,0x0c,0x76,0xfd,0x6d,0x36,0xa5,0xca,0xda,0xaa,0x80,0x00,0x26,0x40,0xe1,0xa9,0x78,0xc8,0x17,0xe4,0x4f,0x9c,0x35,0x55,0xef,0x00,0x05,0x91,0x39,0x84,0x27,0x39,0x31,0x5e,0x23,0x03,0x32,0xf1,0x55,0x09,0x9d,0x9d,0x50,0x76,0x00,0x3b,0xb0,0x7b,0x74,0xf1,0x7f,0x42,0x15,0xe2,0x8a,0x7b,0x40,0x00,0x00,0x00,0x7e,0xa3,0x14,0x10,0x00,0x90,0x30,0x92,0xc5,0x44,0x9e,0x12,0x44,0xf7,0xd0,0xb6,0x99,0xa6,0x0b,0x1d,0xe3,0xf9,0x10,0xfa,0xf5,0xa0,0xa6,0xa9,0xed,0x0a,0xf1,0x02,0x00,0x28,0x1c,0xd7,0xab,0x44,0x83,0x62,0x0f,0x3b,0xad,0xe1,0xdf,0xa9,0x74,0x42,0x2f,0xd2,0x4d,0x80,0xec,0x04,0xe3,0xf2,0x62,0x86,0x34,0xe2,0xf5,0xf9,0x5c,0xb9,0x81,0x4e,0x14,0x4a,0xec,0x8c,0xec,0x9f,0xd2,0x81,0xf9,0xad,0xe3,0xb3,0x87,0x24,0x00,0x23,0x55,0xdb,0xe9,0x32,0x32,0x11,0x51,0x38,0x65,0x23,0x88,0xc0,0x00,0x00,0x2b,0x99,0xe2,0x35,0x18,0x36,0x71,0xa4,0xf5,0xb1,0xea,0xac,0xb4,0xb8,0xa4,0x10,0x53,0x2d,0xf5,0xbd,0xca,0x1f,0xf4,0x7b,0x97,0x3f,0x71,0xd5,0x97,0x83,0x88,0x84,0x00,0x23,0x00,0xdd,0x01,0x9e,0xef,0x64,0x0d,0xdb,0x94,0xe5,0xf5,0x2f,0xfa,0x00,0x9a,0xf1,0xe5,0x82,0xae,0xac,0xed,0xb8,0xec,0xac,0x38,0x5d,0xab,0xa4,0x05,0x0d,0xe2,0x3e,0x10,0x92,0xef,0x93,0x96,0x66,0xa4,0xd7,0x03,0xf4,0xe4,0x52,0x3a,0x01,0x00,0x1f,0x3c,0xb7,0x9d,0xef,0x33,0x19,0xfc,0xd3,0x78,0xdb,0xc7,0x80,0x00,0x00,0xc7,0x67,0xe2,0xd2,0x6f,0xdb,0xeb,0xa0,0x53,0x47,0xfc,0x9e,0xb4,0xc7,0x98,0x59,0x4a,0xac,0x8f,0xbc,0x5e,0x0d,0x3c,0x97,0xee,0x32,0x13,0x89,0xd4,0x7f,0xfa,0x03,0x00,0x15,0xde,0x14,0x12,0xb8,0xc8,0x23,0xee,0x0f,0x81,0x82,0x4f,0x40,0x00,0x00,0x06,0x48,0xad,0x2b,0xc4,0xe2,0x5f,0xc5,0xa4,0xf2,0x29,0x16,0xfb,0x48,0xc0,0x71,0x47,0x99,0x16,0xd0,0x55,0x51,0x5e,0x3f,0xcd,0x1d,0x2c,0x5b,0xa5,0xdc,0x37,0x07,0x00,0x14,0x69,0x50,0x46,0x49,0xdf,0x9c,0xd6,0x6f,0xc2,0x1b,0x29,0xdb,0x5c,0x00,0x56,0x84,0x19,0x4d,0x26,0xb0,0x9a,0x3c,0xbb,0xad,0xb1,0x5e,0xf1,0x71,0x68,0x01,0x80,0x3d,0x15,0xa7,0x78,0x28,0x7b,0x53,0xc8,0x4f,0x6f,0x3d,0xc5,0xe1,0x06,0x64,0x00,0x13,0xcf,0x13,0xca,0x11,0x48,0x2f,0x6f,0x6c,0x3c,0x50,0xfb,0xc0,0x00,0x00,0x2e,0x28,0x4a,0x99,0x14,0x86,0xdd,0x73,0x02,0x40,0xe3,0xc8,0x0e,0x4c,0xec,0xce,0x1b,0x20,0xa9,0x06,0x31,0x86,0x9d,0xc1,0xff,0xbb,0x02,0x00,0x2e,0x8b,0xe3,0x6e,0x00,0x13,0x7c,0xe7,0x45,0x14,0x11,0xf2,0x48,0x83,0xb6,0xae,0xd8,0x42,0x20,0x00,0x73,0x1f,0xbb,0x9f,0x5e,0x87,0x34,0x2b,0xa9,0x0b,0x44,0xf8,0x8d,0xd1,0x64,0xdf,0xd2,0x90,0x30,0x71,0x7d,0xb6,0x82,0xf5,0x84,0x79,0x22,0xc7,0x32,0x7f,0x0c,0xe8,0x00,0x13,0x5c,0x7e,0xf7,0x06,0xcc,0x3f,0xff,0x01,0x64,0xd8,0x45,0xc0,0x00,0x00,0xd2,0xe8,0x75,0x77,0xed,0x0c,0x0c,0x95,0x42,0xca,0x8c,0x1a,0x0b,0x3a,0x0c,0x5b,0x5d,0xcf,0xa6,0xf3,0xab,0xe2,0xe6,0x0d,0xb3,0x11,0x98,0x2e,0x36,0xd2,0x59,0x8e,0x00,0x11,0x76,0x9f,0x66,0xbb,0x3e,0xeb,0xba,0x49,0x52,0x2a,0xc0,0x00,0x00,0x00,0x21,0xda,0xcb,0x65,0x84,0x3a,0x7f,0xa9,0x50,0xd5,0x6f,0xc8,0x36,0x60,0xe3,0xb5,0x5c,0x30,0x5c,0xd9,0xa7,0x39,0x50,0x60,0xfe,0x0a,0x0b,0x52,0xe2,0xa2,0x58,0x8e,0x00,0x11,0x5f,0x48,0x17,0xd3,0xef,0x96,0x71,0x44,0x65,0x1d,0x0f,0xc0,0x00,0x00,0x27,0xba,0x45,0xea,0x9d,0xf9,0xb1,0xc8,0xc7,0xaf,0xce,0xe1,0x33,0x46,0x6a,0x3c,0x27,0xba,0xb4,0xdf,0x57,0x88,0x7d,0x98,0x3d,0x5f,0xcf,0xff,0xd0,0x16,0x85,0x8c,0x00,0x11,0x0d,0xe2,0x67,0x57,0x32,0xc0,0xe9,0xe9,0x88,0xf2,0x94,0x00,0x00,0x00,0x63,0xa3,0xc1,0xe9,0x17,0x6c,0x31,0x68,0xe1,0x9f,0x2d,0xd6,0x6c,0xbe,0xea,0xf4,0x76,0xb4,0x33,0x97,0xba,0xe3,0x5e,0x9c,0x5c,0x33,0x23,0x21,0xf7,0x18,0xc6,0xf5,0x00,0x10,0x74,0x19,0xdd,0xb8,0xe4,0x04,0xb2,0xf2,0x5d,0xca,0xcc,0xc0,0x00,0x00,0x0c,0x2f,0xe0,0xb2,0x53,0x9e,0x59,0x22,0xc7,0xa1,0xde,0x3c,0x13,0x33,0x6a,0x0e,0x88,0xec,0xff,0x91,0x5e,0xbb,0x7e,0xab,0x6c,0x18,0x64,0x78,0x23,0x92,0x7e,0x7f,0x00,0x0f,0xf3,0x02,0xb8,0xa3,0xe4,0x60,0xcf,0x9d,0x1d,0x30,0x27,0x40,0x00,0x00,0x49,0x62,0x79,0xe9,0x74,0x75,0x94,0x75,0x20,0x20,0xf7,0xc7,0x29,0x46,0xe5,0x21,0xc6,0xb6,0xb8,0x65,0xae,0x30,0x6d,0x26,0x52,0xdd,0x99,0x03,0x1b,0xba,0xde,0x12,0x00,0x0f,0x83,0xef,0x13,0xa9,0x34,0xba,0x6d,0xd3,0x0f,0xc3,0x56,0x41,0x4f,0xc0,0x6b,0x93,0xce,0x69,0x73,0xd7,0x5d,0x43,0x84,0x52,0x21,0xfe,0x1c,0xcd,0x3c,0x68,0x73,0x31,0xd8,0x43,0xa8,0xe8,0x9e,0xc5,0xef,0xf5,0x28,0x2d,0x03,0xf7,0x8a,0x3f,0x00,0x0d,0xfb,0x3a,0xb5,0xba,0x47,0x8b,0xa6,0x6a,0xce,0x68,0x7c,0x00,0x00,0x00,0xe0,0x75,0xab,0x29,0xd9,0x93,0x02,0x26,0x94,0x96,0xda,0x02,0xc2,0xf8,0x43,0xb3,0x7b,0x3e,0xc1,0xab,0xc3,0xf1,0xb4,0xab,0x50,0xa0,0x49,0x54,0x9e,0x64,0x67,0xd8,0x00,0x0d,0x42,0x8c,0xd5,0xa2,0x85,0xa7,0x30,0x97,0x2e,0x7a,0x58,0x40,0x00,0x00,0xa7,0x39,0xc8,0xf6,0xb8,0x02,0xc8,0x24,0xe1,0xcb,0xe6,0x42,0x7c,0xcb,0xea,0x39,0x32,0x8f,0x1c,0x58,0x4c,0x58,0x43,0x98,0xb1,0xec,0xd4,0x6c,0xda,0x21,0xa0,0x26,0x00,0x0c,0xd2,0xa2,0xb6,0x09,0x47,0x1b,0x0c,0x85,0x48,0x8a,0xe3,0x00,0x00,0x00,0x2d,0x54,0x85,0x03,0x12,0x2a,0x96,0x25,0x71,0x83,0x42,0x00,0x0b,0x53,0x92,0x4f,0x1b,0xb8,0xbd,0xca,0xab,0xe2,0x2e,0x1d,0x64,0xf0,0xb0,0x14,0x44,0xc0,0x2e,0x64,0x00,0x0c,0x06,0x59,0xa3,0xe6,0x51,0xeb,0x27,0x87,0xc6,0xc9,0xe7,0x00,0x00,0x00,0x52,0x8a,0x27,0x61,0xb5,0x10,0xb8,0xd9,0xb4,0x20,0x67,0x56,0xa9,0x3b,0xb0,0xfe,0x0d,0xae,0x0c,0x4a,0x39,0x68,0x87,0x20,0x74,0xf5,0x4b,0x68,0xaa,0x3b,0xc5,0x7a,0x00,0x0a,0x9f,0xa3,0x19,0x67,0x4f,0xc3,0xc2,0x6a,0x44,0xa7,0xa1,0x00,0x00,0x00,0x03,0x47,0x19,0x65,0x5b,0xc7,0x4e,0x7a,0x6d,0x4b,0x30,0x81,0x1b,0xdb,0xb9,0x0b,0x81,0x3c,0xfe,0xf2,0x40,0x0e,0x31,0xbd,0x6f,0xa2,0xdd,0x35,0x24,0x5f,0xea,0x4d,0x00,0x0a,0x43,0x60,0xc0,0x84,0x5e,0x5b,0xf1,0xe1,0xa8,0x20,0x72,0x80,0x00,0x00,0x37,0x03,0xed,0x3e,0x78,0x3a,0x27,0xa5,0x70,0xeb,0x03,0x27,0x22,0x86,0xcb,0x42,0xf9,0x9a,0xa8,0xc3,0xed,0x35,0x74,0xd0,0xd7,0x96,0x34,0x08,0x12,0xb7,0x10,0xf8,0x00,0x0a,0x1a,0x04,0x8e,0x34,0x78,0xf4,0x0d,0xc3,0xce,0x56,0xde,0x00,0x00,0x00,0x0b,0xba,0xbf,0xac,0x98,0x6b,0xee,0x69,0xf9,0x2d,0x62,0x09,0x3e,0x7a,0xfb,0xe4,0xc0,0xcb,0xea,0xaa,0xb8,0xba,0x1c,0xc4,0xd0,0xe6,0xde,0x64,0xee,0x5f,0x53,0x4d,0x00,0x09,0xe1,0x5a,0x5e,0x5a,0xd8,0xec,0x8c,0xc6,0x04,0x0b,0x70,0x00,0x00,0x00,0xbc,0x17,0xf0,0x36,0x61,0x80,0x34,0xcb,0x7a,0x62,0xbe,0xb1,0x4e,0x2f,0x41,0xbf,0x97,0xac,0xd3,0x13,0xb9,0x02,0x62,0x8a,0x38,0xa9,0xdf,0x24,0xb0,0xfe,0x1f,0xeb,0x00,0x09,0xb5,0xc2,0x30,0xb4,0x2c,0x9e,0xc2,0xf8,0x0b,0x4f,0x2e,0x80,0x00,0x00,0xd7,0x5c,0x12,0xef,0x9e,0xb6,0xd0,0x47,0xe5,0x6c,0xd8,0x92,0x09,0x6e,0xa2,0x65,0x0b,0x54,0xfa,0xe4,0x8a,0x2f,0xd6,0x74,0x07,0x31,0x60,0xcf,0x31,0xaa,0x1c,0x3d,0x00,0x09,0x62,0xc8,0x2d,0x8c,0x63,0xb0,0xee,0x20,0x62,0x60,0xf1,0x80,0x00,0x00,0x37,0x22,0xce,0x29,0xa5,0x20,0x95,0x2e,0x71,0xbc,0x7d,0x98,0x35,0x31,0x38,0x3e,0x2d,0xfc,0xa6,0x4f,0x13,0x2c,0x4a,0x3a,0x15,0x92,0x1a,0x9d,0xc5,0xc7,0xe8,0x33,0x00,0x09,0x17,0xa5,0x83,0x9a,0xc2,0x26,0x59,0x0d,0xa2,0x37,0x8b,0x80,0x00,0x00,0xcd,0x0a,0x6c,0x6b,0xef,0x52,0xba,0x32,0x61,0xa6,0x5d,0x41,0x60,0xba,0xb8,0xfd,0xd0,0x6e,0x10,0xea,0x36,0xc5,0xdf,0x4d,0xab,0x95,0x3b,0x2d,0xb2,0x65,0x1c,0x87,0x00,0x08,0xc7,0x1e,0x56,0xa5,0x82,0x5f,0x32,0xf4,0x8b,0x77,0x0a,0x00,0x00,0x00,0x57,0x7f,0x53,0xb7,0xb8,0x94,0x01,0x10,0xcb,0x70,0x8b,0xa8,0x36,0x74,0x03,0xa2,0xed,0x47,0x0f,0x6c,0xe6,0x4b,0x6f,0x9f,0xd7,0x11,0xf2,0x30,0x19,0xe7,0xbb,0x58,0x00,0x08,0x60,0x87,0xc1,0xa9,0x21,0x0a,0x9d,0x3a,0xf3,0xdb,0x1d,0x00,0x00,0x00,0x06,0xe1,0x6c,0xde,0x57,0x77,0xc1,0x40,0x6d,0x58,0x90,0x26,0x11,0x1b,0xfe,0x26,0x2d,0xa5,0xcd,0x64,0xd9,0x50,0xf4,0xf2,0xa4,0x89,0x42,0x5b,0xf4,0xf1,0xbe,0x1b,0x00,0x08,0x21,0x84,0x0f,0xf1,0x4a,0xb1,0x0c,0xb0,0xd8,0x20,0xd9,0xc0,0x00,0x00,0xc0,0x18,0x8f,0x62,0xd4,0x55,0x74,0xa2,0x27,0x45,0x27,0x20,0x1a,0x41,0x71,0x13,0x43,0xbc,0xf7,0x5e,0xff,0xf6,0x49,0xf0,0x5b,0x25,0x70,0x89,0x00,0xb1,0x51,0x09,0x00,0x07,0xb9,0x50,0x02,0xdd,0x5e,0xa1,0x72,0xcc,0x8b,0x81,0x00,0x40,0x00,0x00,0xb9,0xb8,0xaf,0x96,0x9b,0x3a,0xea,0xf1,0x44,0xf2,0xad,0xf3,0xea,0xad,0x85,0x3f,0x06,0xfe,0x8f,0xd3,0x7c,0x13,0xd9,0x2b,0x8b,0x99,0x99,0x95,0x8c,0x7e,0xff,0x69,0x00,0x07,0xb8,0x57,0x4d,0x27,0xc5,0x4b,0x4a,0x04,0x2d,0x86,0xae,0x80,0x00,0x00,0x69,0x84,0x29,0x2f,0xe7,0x03,0x7d,0x28,0x05,0x9b,0x6e,0xfd,0x45,0x3d,0xd0,0x0b,0x03,0xde,0xca,0x9f,0x39,0x12,0xc1,0x02,0x7e,0xd0,0xce,0xf5,0x38,0xf5,0x23,0x02,0x00,0x07,0x9b,0xbb,0x4c,0x64,0x10,0x3e,0x04,0x45,0xdf,0xad,0x1d,0x40,0x00,0x00,0x66,0x81,0xed,0xa0,0x45,0xd8,0x11,0xd9,0x7b,0x03,0x0c,0x97,0x0a,0xaf,0x4a,0xe2,0x4b,0xf1,0x0a,0xf5,0xa9,0xc7,0x59,0xe6,0x32,0x5c,0xa3,0x67,0x24,0x26,0xf2,0xbb,0x00,0x07,0x07,0x7b,0xc3,0x26,0xe3,0xb3,0xcf,0x28,0x99,0xb6,0xdc,0xc0,0x00,0x00,0xbf,0x78,0x5a,0x32,0x9c,0xfb,0x66,0xef,0xdb,0xd3,0x55,0x5a,0x50,0xfc,0x5f,0xaf,0x4e,0x6a,0x3e,0x98,0x63,0xf9,0xa2,0xbe,0x2b,0x25,0xa7,0xf2,0x29,0x43,0xb7,0x50,0x00,0x06,0x64,0xe2,0xe9,0xb1,0x32,0xec,0xb7,0xd0,0x5e,0xf2,0xe7,0x40,0x00,0x00,0x6d,0x30,0xe7,0x8d,0xb3,0x82,0x90,0x3f,0x20,0x67,0x05,0x7c,0x2b,0x27,0xd6,0xb8,0x1e,0xbe,0x72,0x94,0x89,0x07,0x13,0xad,0x82,0xd7,0xe3,0xab,0x33,0x87,0xdf,0xc6,0x00,0x06,0x36,0x2b,0x64,0x56,0x9c,0x17,0xca,0x7f,0xc7,0xce,0x4e,0x00,0x00,0x00,0x56,0x94,0xd4,0x93,0xcc,0x31,0xc0,0x57,0x2a,0x3f,0x09,0x81,0x4a,0x33,0xbe,0x96,0xf9,0x00,0xde,0xf2,0xae,0xf5,0x51,0x4a,0xda,0x67,0x4f,0xfb,0x9c,0x4e,0x20,0x77,0x00,0x06,0x20,0xe9,0xe7,0x49,0x43,0xa8,0x53,0x78,0x59,0xba,0x70,0x00,0x00,0x00,0x2c,0x4c,0x0c,0x4a,0xc8,0x02,0xdc,0x5f,0x05,0x0d,0x8f,0x22,0x65,0x55,0x7f,0xca,0xcb,0xb7,0x72,0xbb,0x31,0x98,0x63,0xf7,0x9c,0x6b,0x8b,0x58,0xfc,0x60,0x36,0x0f,0x00,0x06,0x10,0x1c,0xe2,0x02,0x74,0xeb,0x65,0xde,0xae,0x74,0x08,0x00,0x00,0x00,0xde,0xe3,0x5b,0xaa,0x71,0x5c,0x01,0xf7,0xb3,0xbb,0x52,0xa6,0x95,0xc9,0x9d,0x9e,0x5a,0xbe,0x71,0x4b,0x86,0x84,0xfe,0x47,0xf5,0x0b,0x5c,0x64,0xf9,0x74,0x16,0xd3,0x00,0x05,0xc7,0x27,0xe4,0x1b,0x87,0x13,0xe8,0xca,0x00,0x96,0x4a,0x00,0x00,0x00,0x23,0x67,0x28,0x1f,0x3b,0x73,0x99,0x09,0xf7,0xa9,0x66,0x5c,0x6e,0x44,0x83,0x68,0xec,0x58,0x65,0x0a,0x9d,0x4c,0x7c,0x80,0xa3,0x37,0x05,0x8e,0x7a,0x77,0x5b,0x94,0x00,0x05,0xc6,0x90,0xe5,0xaa,0x95,0xab,0x25,0x86,0xb9,0x38,0xd0,0xd7,0x50,0x23,0xbf,0x4e,0xf3,0x7f,0xe8,0xcc,0xfd,0x38,0x45,0x00,0x78,0xe0,0xa6,0xed,0x96,0x1e,0x04,0xb4,0xe8,0xc4,0xe1,0xec,0xea,0x60,0x52,0xe0,0x54,0x35,0xac,0x0e,0xaf,0xf8,0x00,0x05,0x57,0x51,0xa6,0xb1,0x1a,0x0c,0x6c,0x72,0xe9,0x3f,0x9f,0x40,0x00,0x00,0x15,0xf9,0x89,0xa3,0x9b,0x6d,0xbb,0x39,0x64,0xb6,0xfd,0xec,0xaf,0xf3,0xb9,0x03,0x4c,0x6f,0x90,0xa4,0x3e,0xd4,0x7c,0x2d,0x98,0x1d,0x8b,0xd7,0x82,0xaf,0x0c,0xf1,0x00,0x05,0x3f,0x3c,0xda,0xcc,0x37,0x77,0xee,0x83,0x52,0x7b,0x7d,0xc0,0x00,0x00,0x10,0xb9,0x96,0xca,0x13,0x80,0x41,0xab,0x4a,0xac,0xe2,0x8b,0x13,0x2f,0x3d,0xfb,0x16,0x3f,0x12,0x74,0xdf,0xda,0xda,0xa2,0x35,0xfa,0x17,0x87,0xc2,0xc0,0xfb,0x7b,0x00,0x05,0x36,0x15,0x5d,0xd9,0xbf,0x3a,0xc1,0xa1,0x4a,0x1b,0x86,0xc0,0x00,0x00,0xda,0xae,0x3a,0xd3,0xb6,0xbc,0x56,0xf0,0x5f,0xf0,0x00,0x34,0xf1,0x8e,0x56,0x3b,0x51,0x79,0x6e,0xf1,0x62,0xc6,0xf5,0xb1,0x97,0x3b,0x49,0xe3,0xd1,0x65,0xb9,0x2f,0x00,0x05,0x05,0x25,0x07,0x4c,0x53,0x45,0x7e,0xfe,0x08,0x7f,0x14,0x4f,0xd2,0xc8,0xf9,0xa8,0x3d,0xf9,0x81,0x3e,0x39,0xf3,0x81,0xb9,0x55,0x53,0x6f,0x4b,0xb2,0x73,0x9b,0x83,0x23,0x23,0xb9,0x0a,0xe3,0x52,0x63,0xfe,0xe1,0xff,0x4c,0xf0,0x30,0x23,0x00,0x04,0xf2,0x4c,0xfd,0x67,0xfd,0xe9,0x01,0xaf,0x96,0x95,0x74,0x00,0x00,0x00, 0x00};
	size_t paper_bootstrap_weights_size = sizeof(paper_bootstrap_weights) - 1;
}
